// Auto-generated by python/train.py
// Network: 16 → 16 (ReLU) → 10
// Fixed-point: Q8.8

#ifndef NN_WEIGHTS_H
#define NN_WEIGHTS_H

#define NN_INPUT_SIZE  16
#define NN_HIDDEN_SIZE 16
#define NN_OUTPUT_SIZE 10

// Layer 1 weights: [HIDDEN_SIZE * INPUT_SIZE / 2] packed words
// flat index = neuron * INPUT_SIZE + input_idx
static const unsigned int nn_fc1_weights[] = {
    0xFFEF0005,
    0xFFE8000E,
    0x002A0037,
    0xFFBF0001,
    0xFFF1FFCC,
    0xFFF7FFE7,
    0x00300006,
    0x00120003,
    0xFFD9FFE4,
    0x002C0037,
    0xFFDBFFD5,
    0x0035FFCB,
    0xFFF2000A,
    0xFFDDFFCE,
    0x003AFFF8,
    0x0037000B,
    0xFFCDFFD8,
    0x0035FFFC,
    0x000CFFDE,
    0x000EFFFE,
    0xFFD00003,
    0xFFDD0033,
    0xFFDF0031,
    0xFFDAFFD5,
    0xFFD70008,
    0xFFD3FFF5,
    0xFFDD0003,
    0x003BFFFC,
    0xFFDCFFE7,
    0xFFD0000D,
    0x000E0023,
    0x002B0016,
    0x00110023,
    0xFFCEFFBF,
    0xFFCEFFEF,
    0x002A001B,
    0xFFE90021,
    0xFFFC0036,
    0xFFF4000C,
    0x00320022,
    0x0027002B,
    0x0039FFFC,
    0x0010000A,
    0x0018000D,
    0xFFC40022,
    0xFFCC0025,
    0x003A002B,
    0xFFD50002,
    0xFFD4002F,
    0x0024FFCD,
    0xFFF1FFE2,
    0xFFCDFFDF,
    0x00360020,
    0xFFF90026,
    0xFFF8FFD2,
    0xFFF5FFF8,
    0xFFDAFFFA,
    0x00090022,
    0xFFFC001D,
    0x002CFFE0,
    0x002EFFDF,
    0x00370000,
    0x002BFFCD,
    0xFFEDFFD4,
    0x0025FFE2,
    0x00030014,
    0xFFC2002C,
    0x00060015,
    0xFFCA000B,
    0xFFD80024,
    0xFFD4FFCE,
    0xFFE50023,
    0x0029FFF6,
    0xFFDF0027,
    0x0000FFC8,
    0xFFD6FFCC,
    0x00050032,
    0x00030019,
    0x0005001B,
    0xFFE2FFE1,
    0x0010FFEB,
    0xFFD5FFD4,
    0x003B002E,
    0x0018FFDA,
    0xFFF70004,
    0xFFFAFFF6,
    0xFFDD0029,
    0x001B0020,
    0x002FFFE1,
    0xFFF9FFC9,
    0x0027000C,
    0xFFD9FFD2,
    0xFFF40039,
    0x0000FFCD,
    0xFFE0FFD9,
    0xFFE70017,
    0x002D0018,
    0x0013FFDD,
    0xFFCA0025,
    0xFFCB0017,
    0xFFD90012,
    0x00220016,
    0x0001000B,
    0xFFF10017,
    0x00250008,
    0xFFEA0036,
    0x003D003A,
    0x001FFFC4,
    0x0032FFDF,
    0x0014FFBE,
    0x0003002B,
    0xFFE2FFEE,
    0xFFC8FFD4,
    0xFFD7FFD5,
    0x002CFFE6,
    0xFFCF0035,
    0x0029003F,
    0x001AFFFD,
    0xFFD60013,
    0xFFEC0001,
    0xFFDCFFCF,
    0x0000FFC9,
    0x000EFFE4,
    0x003AFFDE,
    0x0034FFEC,
    0xFFDA002E,
    0xFFE1FFE3,
    0xFFFEFFF8
};

// Layer 1 biases: [HIDDEN_SIZE / 2] packed words
static const unsigned int nn_fc1_biases[] = {
    0xFFBFFFFE,
    0xFFD3FFE7,
    0x002CFFF3,
    0xFFF8FFBD,
    0xFFEDFFF2,
    0xFFF6FFDD,
    0xFFCF0007,
    0x000DFFBC
};

// Layer 2 weights: [OUTPUT_SIZE * HIDDEN_SIZE / 2] packed words
static const unsigned int nn_fc2_weights[] = {
    0x00020030,
    0xFFC2FFD2,
    0x0029002E,
    0x00110027,
    0xFFC2FFDA,
    0xFFF6FFDC,
    0x001EFFDF,
    0xFFDF0015,
    0x0018FFE3,
    0x002B0025,
    0xFFFCFFD2,
    0x001DFFF0,
    0x0026000B,
    0xFFD80031,
    0x003AFFFF,
    0xFFE70000,
    0x001B000D,
    0x00350028,
    0x0002FFEA,
    0xFFD9FFED,
    0xFFDFFFF5,
    0x0015001F,
    0xFFC30015,
    0xFFF2002B,
    0x000B000F,
    0xFFD0FFC8,
    0x0019000A,
    0xFFEDFFDD,
    0x0020000F,
    0xFFF1FFCD,
    0x002EFFD1,
    0x0016003A,
    0xFFF70039,
    0xFFD2003C,
    0xFFCFFFFC,
    0x0007FFDC,
    0xFFEAFFE4,
    0x001DFFF8,
    0x0038FFF9,
    0x0035003E,
    0x003A0015,
    0x00150015,
    0xFFE7FFD4,
    0xFFD60025,
    0x00280014,
    0xFFD2FFEB,
    0xFFEC0022,
    0xFFCD000F,
    0x000BFFF5,
    0xFFF8FFE0,
    0xFFD00009,
    0x00350005,
    0x0039FFFD,
    0xFFDAFFF3,
    0xFFF00032,
    0xFFC2FFFE,
    0x0028FFFF,
    0x000EFFC5,
    0x0004001E,
    0xFFCAFFEC,
    0x0039FFD3,
    0x000DFFF6,
    0xFFFF0029,
    0x0011FFF3,
    0x0024FFE0,
    0x00090032,
    0xFFFFFFCA,
    0x001D0016,
    0xFFF4FFEA,
    0x0016000F,
    0xFFE8001B,
    0x00180032,
    0xFFFCFFE6,
    0x0002FFD0,
    0x0016001A,
    0x00300020,
    0x001AFFD4,
    0x0002FFEC,
    0x002FFFD9,
    0xFFD60015
};

// Layer 2 biases: [OUTPUT_SIZE / 2] packed words
static const unsigned int nn_fc2_biases[] = {
    0xFFEE000C,
    0xFFD90021,
    0xFFE4FFCD,
    0x000F0032,
    0xFFF20021
};

#define NN_NUM_TESTS 5

// Test inputs (Q8.8, packed pairs)
static const unsigned int nn_test_inputs[][8] = {
    {0x0243014B, 0xFFD6FECC, 0xFF850040, 0x01630042, 0x01F7FF17, 0x00DBFF79, 0xFF87FFEE, 0x01D30052},
    {0x00310011, 0xFEC6FFE2, 0x001D007E, 0xFE58008A, 0xFEC1FFCF, 0x00870082, 0x011A00C2, 0x0035FF9C},
    {0x0093FFF6, 0x001D0006, 0x00A8FEFD, 0xFDE000F6, 0x0010FFCB, 0x00CEFECB, 0x002300FF, 0xFFA6FF04},
    {0xFE76009A, 0x00E800C9, 0x015700F7, 0x011E00C9, 0x0027015E, 0x026500A4, 0xFF60FFF0, 0x00E8FFE9},
    {0xFFA1FD10, 0x0073FF7A, 0x01430104, 0x00E2FF20, 0xFFC1FFAD, 0x008000F9, 0xFF8C014E, 0x00C1033E},
};

// Expected labels
static const unsigned int nn_test_labels[] = {3, 3, 4, 7, 4};

// Golden argmax from Q8.8 inference
static const unsigned int nn_golden_argmax[] = {7, 6, 6, 6, 2};

#endif // NN_WEIGHTS_H
